2 0
20 1
中 国
记 者
0 0
工 作
一 个
1 月
1 0
没 有
201 3
自 己
1 2
进 行
我 们
公 司
人 民
2013 年
发 展
人 员
政 府
可 以
社 会
” 的
已 经
: “
国 家
他 们
表 示</w>
北 京
建 设
的 “
企 业
1 9
经 济
部 门
通 过
3 0
时 间
201 4
美 国
就 是
的 一
服 务
管 理
问 题
这 个
可 能
市 场
安 全
目 前
因 为
相 关
网 友
发 现
20 0
研 究
第 一
日 本
如 果
中 央
2014 年
了 一
这 些
城 市
生 活
今 年
到 了
成 为
发 生
现 在
1 1
孩 子
情 况
人 的
开 始
改 革
去 年
会 议
全 国
领 导
项 目
1 5
中 心
对 于
不 是
教 育
医 院
什 么
大 学
一 些
重 要
媒 体
群 众
文 化
调 查
这 样
负 责
12 月
其 中
警 方
1 3
部 分
作 为
交 通
要 求
1 4
需 要
的 人
不 能
表 示
还 是
活 动
这 一
很 多
都 是
组 织
报 道</w>
主 要
先 生
地 区
一 直
出 现
单 位
还 有
一 步
新 闻
方 面
代 表
委 员
以 及
根 据
信 息
有 关
国 际
学 生
上 的
投 资
正 在
机 关
现 场
其 他
也 是
发 布
提 供
问 题</w>
世 界
旅 游
工 作</w>
自己 的
介 绍</w>
( 记者
这 是
由 于
万 元
为 了
中 的
大 的
公 安
价 格
1 8
技 术
实 施
希 望
干 部
2 年
进 一步
00 0
一 名
上 海
微 博
题 :
网 站
第 二
开 展
5 0
使 用
不 少
— —
环 境
产 业
接 受
消 费
1 6
非 常
科 学
规 定
原 标
加 强
电 视
大 家
同 时
实 现
影 响
这 种
当 时
来 的
银 行
原标 题:
男 子
网 络
虽 然
基 本
学 校
推 进
一 起
告 诉
书 记
的 是
当 地
年 的
完 成
市 民
包 括
全 面
的 时
系 统
但 是
铁 路
增 长
. 5
女 士
计 划
提 出
他 的
电 话
保 障
政 策
生 产
民 警
报 告
工 程
提 高
同 时</w>
节 目
法 院
认 为</w>
个 人
办 公
特 别
了 解
甚 至
专 家
制 度
保 护
所 以
历 史
进 入
积 极
工作 人员
认 为
海 南
应 该
继 续
机 构
岁 的
方 式
产 品
造 成
参 加
不 会
公 务
老 人
关 于
看 到
负责 人
收 入
不 仅
201 2年
增 加
资 源
行 政
居 民
按 照
标 准
决 定
不 断
地 方
说 :“
一 定
经 过
健 康
重 点
超 过
责 任
1 7
选 择
达 到
两 个
显 示</w>
存 在
香 港
销 售
只 有
4 0
、 “
政 协
手 机
报 道
过 程
所 有
知 道
报 记者
创 新
身 份
报 》
1 00
一 位
是 否
为 “
建 立
出 了
公 开
高 速
犯 罪
关 系
比 较
合 作
解 决
昨 日
2 4
不 同
一 次
的 大
行 为
关 注
好 的
科 技
资 金
导 致
坚 持
小 时
主 任
人 大
处 理
1 日
电 影
也 有
综 合
2 5
精 神
经 营
公 共
必 须
发 现</w>
分 别
指 出</w>
朋 友
案 件
严 重
落 实
质 量
目 前</w>
国 内
集 团
除 了
一 家
开 发
主 席
6 0
怎 么
更 多
基 础
最 高
身 体
我 国
最 后
逸 夫
无 法
能 力
人民 网
获 得
卫 生
也 不
网 上
政 治
家 庭
执 行
而 且
1 .
食 品
今 天
事 件
数 据
污 染
利 用
每 天
女 儿
了 解</w>
如 何
一 种
支 持
车 票
春 节
农 村
正 式
准 备
昨 天
直 接
儿 子
觉 得
委 会
主 持
此 外</w>
或 者
旅 客
亿 元</w>
陕 西
有 的
来 自
“ 我
能 够
8 0
全 部
出 的
英 国
8 日
不 过
规 划
” 、“
两 人
结 果
春 运
6 日
得 到
武 汉
形 成
韩 国
有 限
土 地
针 对
参 与
春 晚
台 湾
纪 委
此 次
公 布
宣 传
新 的
人 们
采 访
有 效
车 辆
购 买
记 者</w>
安 倍
下 午
人 士
情 况</w>
… …
成 功
受 到
空 气
联 合
促 进
观 众
实 际
持 续
女 性
第 三
设 计
只 是
监 督
万 元</w>
并 不
统 一
公 路
女 子
控 制
法 律
医 疗
养 老
明 确
随 着
事 故
活 动</w>
各 种
2013年 12月
具 体
推 动
有 人
解 放
专 业
联 系
举 行
金 融
邵 逸夫
农 民
共 同
最 终
原 因
进行 了
更 加
1 年
图 )</w>
以 上
这样 的
过 去
生 态
不 到
2 .
的 新
据 了解</w>
因 此
任 何
支 付
了 “
2 3
加 快
之 后</w>
检 查
首 次
再 次
7 日
一 年
规 定</w>
具 有
汽 车
消 防
行 业
基 金
附 近
不 要
保 持
严 格
近 日</w>
其 实
提 升
左 右</w>
重 大
违 法
这 么
许 多
的 是</w>
消 息
及 时
财 政
条 件
引 起
社 区
个 月
免 费
执 法
目 标
州 市
大 量
完 善
习 近
行 动
事 业
安 徽
建 设</w>
不 得
里 的
保 险
现 代
期 间
习近 平
要 求</w>
之 间
依 法
调 整
9 日
派 出
来 到
水 平
十 分
父 亲
建 议
后 的
医 生
一 般
召 开
是 在
全 省
学 习
容 易
采 取
委员 会
喜 欢
涉 嫌
有 些
上 午
是 “
据 悉</w>
发 展</w>
那 么
集 中
妻 子
帮 助
娱 乐
任 务
合 肥
双 方
回 家
安 排
1 1月
12 30
老 师
全 球
5 年
取 得
调 查</w>
亿 元
产 生
办 法
的 小
注 意
2 2
区 域
位 于
完 全
省 委
内 容
! ”
分 钟
爸 爸
村 民
西 安
1230 6
意 见
河 北
办 理
照 片
她 的
规 模
交 易
家 人
来 越
下 午</w>
起 来
做 好
的 《
深 化
面 对
公 交
主 义
越 来越
电 子
新 年
人 口
以 来</w>
曝 光
有 一
运 输
嫌 疑
食 物
多 次
自 然
游 客
未 来
经 常
告诉 记者</w>
父 母
这 次
新 疆
男 人
有限 公司
当 天
建 筑
面 积
确 保
平 方
普 通
资 料
9 0
确 定
监 察
业 务
才 能
明 显
5 00
对 方
方 面</w>
引 发
工作 的
系 列
城 镇
突 然
道 路
工 业
价 值
努 力
农 业
党 的
自 治
的 事
分 析
传 统
设 施
将 在
成 了
国 务
福 建
昨 日</w>
减 少
只 能
军 事
厦 门
成 都
年 轻
检 察
正 常
我 的
十 八
了 ”
吗 ?
登 记
消费 者
2013 年</w>
制 定
大 会
之 前
平 均
艺 术
明 星
7 0
工 资
公务 员
预 计
女 人
长 期
母 亲
发 挥
收 费
市 委
获 悉</w>
每 年
监 管
就 会
派出 所
改 善
驾 驶
随 后
地 产
内 的
% 的
结 婚
此 前
最 大
平 台
上 午</w>
四 川
关 键
规 范
解放 军
海 口
截 至
营 养
朝 鲜
充 分
让 人
2 6
考 试
》 的
养 生
作 用</w>
不 过</w>
带 来
2 1
范 围
办公 室
同 比
措 施
国务 院
全 市
视 频
深 入
是 一
儿 童
了解 到</w>
立 即
动 车
杨 幂
战 略
民 生
实 行
治 理
司 机
都 会
通 知
作 用
2 7
几 乎
成 立
学 院
官 方
近 日
南 京
都 有
19 9
以 下
天 气
” 号
稳 定
连 续
” “
之 后
小 区
功 能
属 于
加 大
其 中</w>
13 日
在 这
用 户
身份 证
的 地
行 为</w>
自治 区
拍 摄
8 年
主 动
然 后
透 露</w>
认 真
2014年 1月
期 间</w>
困 难
时 间</w>
启 动
中 共
湖 南
住 房
领 域
交 警
真 正
涉 及
样 的
接 到
北京 市
另 一
介 绍
是 一个
央 视
发展 的
各 地
3 .
保 证
影 响</w>
基 地
只 要
党 委
申 请
来 说</w>
拥 有
最 近
先 后
考 虑
同 志
尽 管
司 法
腐 败
的 情况
广 大
3 00
显 示
罗 斯
福 州
员 工
火 车
部 队
2 8
7 年
的时 候</w>
日 前
十 二
出 台
3 5
消 息</w>
整 个
感 觉
人民 币
嫌疑 人
地 铁
品 牌
贯 彻
环 保
三 个
结 构
的 高
打 造
动 物
男 性
发 表
反 映
给 予
开 始</w>
制 度</w>
酒 店
这 位
联 网
10 日
更 是
文 明
20 00
各 级
上 涨
运 动
官 员
几 个
思 想
强 化
全 会
呢 ?
回 应
发 言
了 ”</w>
不 可
下 的
记者 从
商 品
比 如
俄 罗斯
广 东
左 右
结 合
次 会议
职 业
各 项
方 式</w>
印 度
教 授
、 《
纷 纷
通 讯
局 长
除 夕
尤 其
近 年
数 量
多 年
外 交
飞 机
费 用
符 合
气 温
开 放
作 出
为 什么
还 在
歌 手
古 城
时 候
投 入
用 于
机 制
找 到
对 此
死 亡
新 华
张 艺
公 园
而 是
终 于
上 了
迅 速
常 委会
前 往
浙 江
相 当
的 重要
基 层
劳 动
维 护
将 于
表 现
在 一
公 众
应 当
公安 局
方 向
9 月
3 1
还 要
出 来
增 强
3 年
就 业
毕 业
根 本
“ 三
女 孩
下 降
2 月
并 没有
依 然
推 荐
专 项
14 日
乘 客
百 姓
新 型
培 训
风 险
生 育
如 此
4 5
海 军
民 族